{
  "stoi": {
    "<pad>": 0,
    "<bos>": 1,
    "<eos>": 2,
    "<unk>": 3,
    "\n": 4,
    "、": 5,
    "。": 6,
    "《": 7,
    "》": 8,
    "「": 9,
    "」": 10,
    "『": 11,
    "』": 12,
    "一": 13,
    "丁": 14,
    "七": 15,
    "丈": 16,
    "三": 17,
    "上": 18,
    "下": 19,
    "不": 20,
    "丑": 21,
    "且": 22,
    "丕": 23,
    "世": 24,
    "丘": 25,
    "丙": 26,
    "並": 27,
    "中": 28,
    "丹": 29,
    "主": 30,
    "乃": 31,
    "久": 32,
    "之": 33,
    "乍": 34,
    "乎": 35,
    "乘": 36,
    "九": 37,
    "乞": 38,
    "也": 39,
    "亂": 40,
    "予": 41,
    "事": 42,
    "二": 43,
    "于": 44,
    "云": 45,
    "五": 46,
    "井": 47,
    "亟": 48,
    "亡": 49,
    "交": 50,
    "亦": 51,
    "享": 52,
    "京": 53,
    "亳": 54,
    "亶": 55,
    "人": 56,
    "什": 57,
    "仁": 58,
    "仇": 59,
    "今": 60,
    "介": 61,
    "仕": 62,
    "他": 63,
    "代": 64,
    "令": 65,
    "以": 66,
    "仰": 67,
    "仲": 68,
    "任": 69,
    "伊": 70,
    "伋": 71,
    "伍": 72,
    "伏": 73,
    "伐": 74,
    "休": 75,
    "伯": 76,
    "似": 77,
    "位": 78,
    "佑": 79,
    "何": 80,
    "余": 81,
    "佚": 82,
    "作": 83,
    "使": 84,
    "來": 85,
    "侈": 86,
    "侍": 87,
    "供": 88,
    "侮": 89,
    "侯": 90,
    "侵": 91,
    "便": 92,
    "係": 93,
    "俊": 94,
    "俑": 95,
    "俗": 96,
    "保": 97,
    "俟": 98,
    "信": 99,
    "修": 100,
    "俯": 101,
    "倉": 102,
    "倍": 103,
    "倒": 104,
    "倦": 105,
    "倪": 106,
    "倫": 107,
    "偃": 108,
    "假": 109,
    "偕": 110,
    "偪": 111,
    "側": 112,
    "偽": 113,
    "傅": 114,
    "傑": 115,
    "備": 116,
    "傳": 117,
    "傷": 118,
    "僕": 119,
    "儀": 120,
    "億": 121,
    "儉": 122,
    "儒": 123,
    "儛": 124,
    "儲": 125,
    "允": 126,
    "元": 127,
    "兄": 128,
    "充": 129,
    "先": 130,
    "光": 131,
    "克": 132,
    "免": 133,
    "兔": 134,
    "兜": 135,
    "入": 136,
    "內": 137,
    "全": 138,
    "八": 139,
    "公": 140,
    "六": 141,
    "兮": 142,
    "共": 143,
    "兵": 144,
    "其": 145,
    "具": 146,
    "典": 147,
    "兼": 148,
    "冉": 149,
    "冠": 150,
    "冢": 151,
    "冶": 152,
    "凍": 153,
    "几": 154,
    "凡": 155,
    "凰": 156,
    "凶": 157,
    "出": 158,
    "函": 159,
    "刃": 160,
    "分": 161,
    "刑": 162,
    "別": 163,
    "利": 164,
    "制": 165,
    "刺": 166,
    "則": 167,
    "削": 168,
    "前": 169,
    "剛": 170,
    "割": 171,
    "創": 172,
    "劉": 173,
    "劍": 174,
    "力": 175,
    "功": 176,
    "加": 177,
    "助": 178,
    "勇": 179,
    "勉": 180,
    "動": 181,
    "勝": 182,
    "勞": 183,
    "勢": 184,
    "勤": 185,
    "勳": 186,
    "勸": 187,
    "勿": 188,
    "匍": 189,
    "匐": 190,
    "化": 191,
    "北": 192,
    "匠": 193,
    "匡": 194,
    "匪": 195,
    "匹": 196,
    "匿": 197,
    "十": 198,
    "千": 199,
    "半": 200,
    "卑": 201,
    "卒": 202,
    "南": 203,
    "博": 204,
    "危": 205,
    "即": 206,
    "卿": 207,
    "厎": 208,
    "厚": 209,
    "原": 210,
    "厥": 211,
    "厭": 212,
    "厲": 213,
    "去": 214,
    "又": 215,
    "及": 216,
    "友": 217,
    "反": 218,
    "叔": 219,
    "取": 220,
    "受": 221,
    "叟": 222,
    "叢": 223,
    "口": 224,
    "古": 225,
    "句": 226,
    "召": 227,
    "可": 228,
    "史": 229,
    "右": 230,
    "司": 231,
    "合": 232,
    "吊": 233,
    "同": 234,
    "名": 235,
    "后": 236,
    "吏": 237,
    "向": 238,
    "君": 239,
    "吠": 240,
    "否": 241,
    "吳": 242,
    "吾": 243,
    "告": 244,
    "周": 245,
    "命": 246,
    "和": 247,
    "咸": 248,
    "咻": 249,
    "咽": 250,
    "哀": 251,
    "哇": 252,
    "哉": 253,
    "員": 254,
    "哭": 255,
    "哿": 256,
    "唐": 257,
    "唯": 258,
    "商": 259,
    "問": 260,
    "啜": 261,
    "啟": 262,
    "善": 263,
    "喜": 264,
    "喪": 265,
    "喬": 266,
    "喻": 267,
    "嗜": 268,
    "嘗": 269,
    "嘬": 270,
    "器": 271,
    "噲": 272,
    "嚴": 273,
    "囂": 274,
    "囊": 275,
    "四": 276,
    "回": 277,
    "因": 278,
    "固": 279,
    "囿": 280,
    "圉": 281,
    "國": 282,
    "園": 283,
    "土": 284,
    "在": 285,
    "圭": 286,
    "地": 287,
    "坐": 288,
    "垂": 289,
    "垣": 290,
    "垤": 291,
    "城": 292,
    "域": 293,
    "執": 294,
    "基": 295,
    "堂": 296,
    "堅": 297,
    "堪": 298,
    "堯": 299,
    "場": 300,
    "塗": 301,
    "塞": 302,
    "填": 303,
    "墁": 304,
    "境": 305,
    "墦": 306,
    "墨": 307,
    "壑": 308,
    "壙": 309,
    "壞": 310,
    "壤": 311,
    "士": 312,
    "壬": 313,
    "壯": 314,
    "壹": 315,
    "壺": 316,
    "夏": 317,
    "夔": 318,
    "外": 319,
    "多": 320,
    "夜": 321,
    "大": 322,
    "天": 323,
    "太": 324,
    "夫": 325,
    "失": 326,
    "夷": 327,
    "奄": 328,
    "奇": 329,
    "契": 330,
    "奚": 331,
    "奪": 332,
    "女": 333,
    "好": 334,
    "妁": 335,
    "如": 336,
    "妃": 337,
    "妄": 338,
    "妣": 339,
    "妻": 340,
    "妾": 341,
    "始": 342,
    "姑": 343,
    "姓": 344,
    "委": 345,
    "姜": 346,
    "威": 347,
    "娶": 348,
    "婁": 349,
    "婦": 350,
    "媒": 351,
    "嫁": 352,
    "嫂": 353,
    "嬖": 354,
    "嬴": 355,
    "子": 356,
    "孑": 357,
    "孔": 358,
    "存": 359,
    "孝": 360,
    "孟": 361,
    "季": 362,
    "孤": 363,
    "孥": 364,
    "孫": 365,
    "孰": 366,
    "學": 367,
    "孺": 368,
    "孽": 369,
    "宅": 370,
    "宇": 371,
    "守": 372,
    "安": 373,
    "宋": 374,
    "完": 375,
    "宗": 376,
    "官": 377,
    "定": 378,
    "宜": 379,
    "客": 380,
    "宣": 381,
    "室": 382,
    "宮": 383,
    "宰": 384,
    "害": 385,
    "宴": 386,
    "宵": 387,
    "家": 388,
    "容": 389,
    "宿": 390,
    "密": 391,
    "寇": 392,
    "富": 393,
    "寒": 394,
    "寓": 395,
    "察": 396,
    "寡": 397,
    "實": 398,
    "寧": 399,
    "寬": 400,
    "寵": 401,
    "寸": 402,
    "封": 403,
    "射": 404,
    "將": 405,
    "專": 406,
    "尊": 407,
    "尋": 408,
    "對": 409,
    "導": 410,
    "小": 411,
    "少": 412,
    "尚": 413,
    "尤": 414,
    "就": 415,
    "尹": 416,
    "尺": 417,
    "尼": 418,
    "居": 419,
    "屈": 420,
    "屋": 421,
    "屏": 422,
    "屑": 423,
    "屨": 424,
    "屬": 425,
    "山": 426,
    "岌": 427,
    "岐": 428,
    "崇": 429,
    "崩": 430,
    "嶽": 431,
    "巍": 432,
    "川": 433,
    "州": 434,
    "巡": 435,
    "巢": 436,
    "工": 437,
    "左": 438,
    "巧": 439,
    "巨": 440,
    "巫": 441,
    "差": 442,
    "己": 443,
    "已": 444,
    "巷": 445,
    "市": 446,
    "布": 447,
    "希": 448,
    "帛": 449,
    "帝": 450,
    "帥": 451,
    "師": 452,
    "席": 453,
    "常": 454,
    "幡": 455,
    "幣": 456,
    "干": 457,
    "平": 458,
    "年": 459,
    "幸": 460,
    "幼": 461,
    "幽": 462,
    "幾": 463,
    "床": 464,
    "序": 465,
    "庖": 466,
    "府": 467,
    "庠": 468,
    "度": 469,
    "庫": 470,
    "庭": 471,
    "庳": 472,
    "庶": 473,
    "庾": 474,
    "廄": 475,
    "廉": 476,
    "廋": 477,
    "廐": 478,
    "廚": 479,
    "廛": 480,
    "廟": 481,
    "廢": 482,
    "廣": 483,
    "廩": 484,
    "廬": 485,
    "廷": 486,
    "弈": 487,
    "式": 488,
    "弒": 489,
    "弓": 490,
    "弔": 491,
    "引": 492,
    "弗": 493,
    "弟": 494,
    "弤": 495,
    "弱": 496,
    "張": 497,
    "強": 498,
    "彊": 499,
    "彌": 500,
    "彘": 501,
    "形": 502,
    "彫": 503,
    "彭": 504,
    "役": 505,
    "彼": 506,
    "往": 507,
    "征": 508,
    "徂": 509,
    "待": 510,
    "很": 511,
    "律": 512,
    "後": 513,
    "徐": 514,
    "徒": 515,
    "得": 516,
    "徙": 517,
    "從": 518,
    "御": 519,
    "復": 520,
    "微": 521,
    "徯": 522,
    "徵": 523,
    "德": 524,
    "徹": 525,
    "心": 526,
    "必": 527,
    "忍": 528,
    "忖": 529,
    "志": 530,
    "忘": 531,
    "忠": 532,
    "快": 533,
    "忸": 534,
    "怒": 535,
    "思": 536,
    "怠": 537,
    "急": 538,
    "性": 539,
    "怨": 540,
    "怩": 541,
    "怵": 542,
    "恆": 543,
    "恐": 544,
    "恔": 545,
    "恝": 546,
    "恣": 547,
    "恥": 548,
    "恩": 549,
    "恭": 550,
    "息": 551,
    "悅": 552,
    "悌": 553,
    "悔": 554,
    "患": 555,
    "悴": 556,
    "悻": 557,
    "情": 558,
    "惑": 559,
    "惕": 560,
    "惛": 561,
    "惟": 562,
    "惠": 563,
    "惡": 564,
    "惰": 565,
    "惴": 566,
    "惻": 567,
    "愆": 568,
    "愈": 569,
    "意": 570,
    "愛": 571,
    "愬": 572,
    "慈": 573,
    "慊": 574,
    "慎": 575,
    "慕": 576,
    "慚": 577,
    "慝": 578,
    "慢": 579,
    "慧": 580,
    "慮": 581,
    "憂": 582,
    "憔": 583,
    "憚": 584,
    "憫": 585,
    "憮": 586,
    "憾": 587,
    "應": 588,
    "懟": 589,
    "懦": 590,
    "懲": 591,
    "懸": 592,
    "懼": 593,
    "戈": 594,
    "戎": 595,
    "成": 596,
    "我": 597,
    "戒": 598,
    "或": 599,
    "戚": 600,
    "戟": 601,
    "戢": 602,
    "戮": 603,
    "戰": 604,
    "戴": 605,
    "戶": 606,
    "戾": 607,
    "所": 608,
    "手": 609,
    "才": 610,
    "扣": 611,
    "扶": 612,
    "承": 613,
    "抑": 614,
    "折": 615,
    "抽": 616,
    "拔": 617,
    "招": 618,
    "拜": 619,
    "拯": 620,
    "持": 621,
    "挫": 622,
    "振": 623,
    "挾": 624,
    "捆": 625,
    "捐": 626,
    "授": 627,
    "掌": 628,
    "排": 629,
    "掘": 630,
    "接": 631,
    "推": 632,
    "掩": 633,
    "揆": 634,
    "揖": 635,
    "揚": 636,
    "揜": 637,
    "揠": 638,
    "援": 639,
    "損": 640,
    "搏": 641,
    "撓": 642,
    "撫": 643,
    "播": 644,
    "撻": 645,
    "擇": 646,
    "操": 647,
    "擘": 648,
    "擴": 649,
    "攘": 650,
    "攝": 651,
    "支": 652,
    "收": 653,
    "攸": 654,
    "改": 655,
    "攻": 656,
    "放": 657,
    "政": 658,
    "故": 659,
    "效": 660,
    "敏": 661,
    "救": 662,
    "敖": 663,
    "敗": 664,
    "教": 665,
    "敢": 666,
    "散": 667,
    "敦": 668,
    "敬": 669,
    "整": 670,
    "敵": 671,
    "敷": 672,
    "數": 673,
    "敺": 674,
    "斂": 675,
    "文": 676,
    "斤": 677,
    "斧": 678,
    "斬": 679,
    "斯": 680,
    "新": 681,
    "斵": 682,
    "斷": 683,
    "方": 684,
    "於": 685,
    "施": 686,
    "旄": 687,
    "旅": 688,
    "旌": 689,
    "族": 690,
    "既": 691,
    "日": 692,
    "旦": 693,
    "旨": 694,
    "旬": 695,
    "旱": 696,
    "旻": 697,
    "昆": 698,
    "明": 699,
    "易": 700,
    "昔": 701,
    "星": 702,
    "春": 703,
    "是": 704,
    "時": 705,
    "晉": 706,
    "晏": 707,
    "晝": 708,
    "普": 709,
    "景": 710,
    "智": 711,
    "暇": 712,
    "暢": 713,
    "暮": 714,
    "暴": 715,
    "曠": 716,
    "曰": 717,
    "曳": 718,
    "更": 719,
    "曷": 720,
    "書": 721,
    "曾": 722,
    "會": 723,
    "月": 724,
    "有": 725,
    "朋": 726,
    "服": 727,
    "朕": 728,
    "望": 729,
    "朝": 730,
    "木": 731,
    "未": 732,
    "末": 733,
    "本": 734,
    "朱": 735,
    "杌": 736,
    "李": 737,
    "材": 738,
    "杠": 739,
    "東": 740,
    "枉": 741,
    "林": 742,
    "果": 743,
    "枝": 744,
    "柳": 745,
    "栗": 746,
    "校": 747,
    "格": 748,
    "桀": 749,
    "桐": 750,
    "桑": 751,
    "桓": 752,
    "梁": 753,
    "梃": 754,
    "梓": 755,
    "條": 756,
    "梩": 757,
    "械": 758,
    "棄": 759,
    "棘": 760,
    "棲": 761,
    "棺": 762,
    "楊": 763,
    "楚": 764,
    "業": 765,
    "極": 766,
    "榮": 767,
    "槁": 768,
    "構": 769,
    "槨": 770,
    "樂": 771,
    "樹": 772,
    "橐": 773,
    "橫": 774,
    "檢": 775,
    "檮": 776,
    "權": 777,
    "次": 778,
    "欣": 779,
    "欲": 780,
    "欺": 781,
    "歌": 782,
    "歠": 783,
    "歡": 784,
    "止": 785,
    "正": 786,
    "此": 787,
    "步": 788,
    "武": 789,
    "歲": 790,
    "歷": 791,
    "歸": 792,
    "死": 793,
    "殃": 794,
    "殆": 795,
    "殖": 796,
    "殘": 797,
    "殛": 798,
    "段": 799,
    "殷": 800,
    "殺": 801,
    "毀": 802,
    "母": 803,
    "每": 804,
    "比": 805,
    "毫": 806,
    "氏": 807,
    "民": 808,
    "氓": 809,
    "氣": 810,
    "水": 811,
    "永": 812,
    "氾": 813,
    "求": 814,
    "汙": 815,
    "汝": 816,
    "江": 817,
    "池": 818,
    "決": 819,
    "沈": 820,
    "沐": 821,
    "沒": 822,
    "沓": 823,
    "沛": 824,
    "沮": 825,
    "河": 826,
    "油": 827,
    "治": 828,
    "沼": 829,
    "況": 830,
    "泄": 831,
    "泉": 832,
    "法": 833,
    "泗": 834,
    "泚": 835,
    "泣": 836,
    "注": 837,
    "泰": 838,
    "洋": 839,
    "洒": 840,
    "洚": 841,
    "洧": 842,
    "洪": 843,
    "活": 844,
    "洽": 845,
    "洿": 846,
    "流": 847,
    "浚": 848,
    "浡": 849,
    "浩": 850,
    "浪": 851,
    "浴": 852,
    "海": 853,
    "浼": 854,
    "消": 855,
    "涉": 856,
    "涕": 857,
    "涸": 858,
    "淅": 859,
    "淑": 860,
    "淫": 861,
    "淮": 862,
    "深": 863,
    "淳": 864,
    "淵": 865,
    "混": 866,
    "清": 867,
    "渴": 868,
    "游": 869,
    "湯": 870,
    "源": 871,
    "準": 872,
    "溝": 873,
    "溢": 874,
    "溱": 875,
    "溺": 876,
    "溼": 877,
    "滄": 878,
    "滅": 879,
    "滋": 880,
    "滕": 881,
    "滯": 882,
    "滸": 883,
    "漁": 884,
    "漢": 885,
    "漯": 886,
    "漿": 887,
    "潔": 888,
    "潤": 889,
    "潦": 890,
    "澤": 891,
    "澮": 892,
    "濁": 893,
    "濟": 894,
    "濡": 895,
    "濫": 896,
    "濯": 897,
    "濱": 898,
    "瀹": 899,
    "火": 900,
    "災": 901,
    "炭": 902,
    "為": 903,
    "烈": 904,
    "烹": 905,
    "焉": 906,
    "焚": 907,
    "無": 908,
    "然": 909,
    "煖": 910,
    "煢": 911,
    "煩": 912,
    "熄": 913,
    "熟": 914,
    "熱": 915,
    "燕": 916,
    "營": 917,
    "爨": 918,
    "爭": 919,
    "爰": 920,
    "爵": 921,
    "父": 922,
    "爾": 923,
    "牆": 924,
    "牖": 925,
    "牛": 926,
    "牣": 927,
    "牧": 928,
    "物": 929,
    "牲": 930,
    "牽": 931,
    "犀": 932,
    "犧": 933,
    "犬": 934,
    "犯": 935,
    "狄": 936,
    "狐": 937,
    "狗": 938,
    "狩": 939,
    "狸": 940,
    "狼": 941,
    "猛": 942,
    "猶": 943,
    "獄": 944,
    "獨": 945,
    "獯": 946,
    "獲": 947,
    "獵": 948,
    "獸": 949,
    "獺": 950,
    "玄": 951,
    "率": 952,
    "玉": 953,
    "王": 954,
    "珠": 955,
    "班": 956,
    "琅": 957,
    "理": 958,
    "琢": 959,
    "琴": 960,
    "璞": 961,
    "璧": 962,
    "環": 963,
    "瓢": 964,
    "瓦": 965,
    "甑": 966,
    "甘": 967,
    "甚": 968,
    "生": 969,
    "產": 970,
    "用": 971,
    "甫": 972,
    "田": 973,
    "由": 974,
    "甲": 975,
    "申": 976,
    "男": 977,
    "界": 978,
    "畎": 979,
    "畏": 980,
    "畔": 981,
    "留": 982,
    "畜": 983,
    "畝": 984,
    "畢": 985,
    "略": 986,
    "畦": 987,
    "畫": 988,
    "異": 989,
    "當": 990,
    "疆": 991,
    "疏": 992,
    "疑": 993,
    "疽": 994,
    "疾": 995,
    "病": 996,
    "瘠": 997,
    "瘳": 998,
    "癰": 999,
    "登": 1000,
    "發": 1001,
    "白": 1002,
    "百": 1003,
    "皆": 1004,
    "皇": 1005,
    "皋": 1006,
    "皙": 1007,
    "皜": 1008,
    "皮": 1009,
    "皿": 1010,
    "盈": 1011,
    "益": 1012,
    "盍": 1013,
    "盛": 1014,
    "盜": 1015,
    "盡": 1016,
    "監": 1017,
    "目": 1018,
    "直": 1019,
    "相": 1020,
    "盻": 1021,
    "省": 1022,
    "眊": 1023,
    "眩": 1024,
    "眸": 1025,
    "眾": 1026,
    "睊": 1027,
    "睦": 1028,
    "睨": 1029,
    "瞍": 1030,
    "瞑": 1031,
    "瞭": 1032,
    "瞷": 1033,
    "瞽": 1034,
    "矙": 1035,
    "矜": 1036,
    "矢": 1037,
    "矣": 1038,
    "知": 1039,
    "矩": 1040,
    "短": 1041,
    "破": 1042,
    "示": 1043,
    "社": 1044,
    "祀": 1045,
    "祖": 1046,
    "祗": 1047,
    "祜": 1048,
    "神": 1049,
    "祥": 1050,
    "祭": 1051,
    "祼": 1052,
    "祿": 1053,
    "禁": 1054,
    "禍": 1055,
    "福": 1056,
    "禦": 1057,
    "禪": 1058,
    "禮": 1059,
    "禹": 1060,
    "禽": 1061,
    "私": 1062,
    "秋": 1063,
    "科": 1064,
    "秦": 1065,
    "移": 1066,
    "稅": 1067,
    "稚": 1068,
    "種": 1069,
    "稱": 1070,
    "稷": 1071,
    "稻": 1072,
    "稼": 1073,
    "穀": 1074,
    "穆": 1075,
    "積": 1076,
    "穡": 1077,
    "穴": 1078,
    "窟": 1079,
    "窮": 1080,
    "窺": 1081,
    "竊": 1082,
    "立": 1083,
    "章": 1084,
    "童": 1085,
    "竭": 1086,
    "端": 1087,
    "笑": 1088,
    "符": 1089,
    "等": 1090,
    "答": 1091,
    "箕": 1092,
    "管": 1093,
    "節": 1094,
    "範": 1095,
    "築": 1096,
    "篡": 1097,
    "篤": 1098,
    "簞": 1099,
    "簡": 1100,
    "籥": 1101,
    "米": 1102,
    "粒": 1103,
    "粟": 1104,
    "粢": 1105,
    "粥": 1106,
    "糞": 1107,
    "糧": 1108,
    "紂": 1109,
    "約": 1110,
    "納": 1111,
    "紛": 1112,
    "素": 1113,
    "索": 1114,
    "累": 1115,
    "紹": 1116,
    "終": 1117,
    "絕": 1118,
    "給": 1119,
    "絮": 1120,
    "統": 1121,
    "絲": 1122,
    "綏": 1123,
    "經": 1124,
    "綢": 1125,
    "維": 1126,
    "綯": 1127,
    "綽": 1128,
    "緣": 1129,
    "緩": 1130,
    "縮": 1131,
    "縷": 1132,
    "績": 1133,
    "繁": 1134,
    "繅": 1135,
    "繆": 1136,
    "織": 1137,
    "繩": 1138,
    "繫": 1139,
    "繼": 1140,
    "纑": 1141,
    "纓": 1142,
    "缺": 1143,
    "罔": 1144,
    "罟": 1145,
    "罪": 1146,
    "置": 1147,
    "罰": 1148,
    "羊": 1149,
    "美": 1150,
    "羞": 1151,
    "羡": 1152,
    "義": 1153,
    "羸": 1154,
    "羽": 1155,
    "羿": 1156,
    "翟": 1157,
    "翼": 1158,
    "老": 1159,
    "考": 1160,
    "者": 1161,
    "耆": 1162,
    "而": 1163,
    "耒": 1164,
    "耕": 1165,
    "耘": 1166,
    "耜": 1167,
    "耨": 1168,
    "耳": 1169,
    "聖": 1170,
    "聘": 1171,
    "聚": 1172,
    "聞": 1173,
    "聰": 1174,
    "聲": 1175,
    "職": 1176,
    "聽": 1177,
    "聿": 1178,
    "肉": 1179,
    "肖": 1180,
    "肥": 1181,
    "肩": 1182,
    "育": 1183,
    "胡": 1184,
    "胥": 1185,
    "胸": 1186,
    "能": 1187,
    "脅": 1188,
    "脩": 1189,
    "腹": 1190,
    "膏": 1191,
    "膚": 1192,
    "膠": 1193,
    "膺": 1194,
    "臣": 1195,
    "臥": 1196,
    "臧": 1197,
    "自": 1198,
    "至": 1199,
    "致": 1200,
    "臺": 1201,
    "臻": 1202,
    "與": 1203,
    "興": 1204,
    "舉": 1205,
    "舊": 1206,
    "舌": 1207,
    "舍": 1208,
    "舒": 1209,
    "舜": 1210,
    "舞": 1211,
    "般": 1212,
    "良": 1213,
    "色": 1214,
    "艴": 1215,
    "艾": 1216,
    "芒": 1217,
    "芥": 1218,
    "芸": 1219,
    "芻": 1220,
    "苗": 1221,
    "苟": 1222,
    "若": 1223,
    "苦": 1224,
    "茂": 1225,
    "茅": 1226,
    "茲": 1227,
    "草": 1228,
    "荊": 1229,
    "荒": 1230,
    "莅": 1231,
    "莊": 1232,
    "莒": 1233,
    "莘": 1234,
    "莩": 1235,
    "莫": 1236,
    "菑": 1237,
    "菹": 1238,
    "萃": 1239,
    "萊": 1240,
    "萬": 1241,
    "落": 1242,
    "著": 1243,
    "葛": 1244,
    "葬": 1245,
    "蒙": 1246,
    "蒸": 1247,
    "蓋": 1248,
    "蓰": 1249,
    "蔽": 1250,
    "蕘": 1251,
    "蕩": 1252,
    "薄": 1253,
    "薛": 1254,
    "薦": 1255,
    "薨": 1256,
    "薪": 1257,
    "藉": 1258,
    "藏": 1259,
    "藝": 1260,
    "藥": 1261,
    "蘇": 1262,
    "虆": 1263,
    "虎": 1264,
    "虐": 1265,
    "處": 1266,
    "虞": 1267,
    "號": 1268,
    "虢": 1269,
    "蚋": 1270,
    "蚓": 1271,
    "蚔": 1272,
    "蚤": 1273,
    "蛇": 1274,
    "螬": 1275,
    "蠅": 1276,
    "蠶": 1277,
    "蠻": 1278,
    "行": 1279,
    "衍": 1280,
    "術": 1281,
    "衛": 1282,
    "衡": 1283,
    "衣": 1284,
    "衰": 1285,
    "衾": 1286,
    "袒": 1287,
    "被": 1288,
    "裎": 1289,
    "裕": 1290,
    "補": 1291,
    "裸": 1292,
    "裹": 1293,
    "裼": 1294,
    "褊": 1295,
    "褐": 1296,
    "褔": 1297,
    "襄": 1298,
    "襲": 1299,
    "西": 1300,
    "要": 1301,
    "覆": 1302,
    "見": 1303,
    "規": 1304,
    "視": 1305,
    "親": 1306,
    "覲": 1307,
    "覸": 1308,
    "覺": 1309,
    "觀": 1310,
    "角": 1311,
    "解": 1312,
    "觫": 1313,
    "觳": 1314,
    "言": 1315,
    "討": 1316,
    "訓": 1317,
    "訕": 1318,
    "託": 1319,
    "訟": 1320,
    "設": 1321,
    "許": 1322,
    "詖": 1323,
    "試": 1324,
    "詩": 1325,
    "詭": 1326,
    "詳": 1327,
    "誅": 1328,
    "誓": 1329,
    "語": 1330,
    "誠": 1331,
    "誣": 1332,
    "誦": 1333,
    "說": 1334,
    "誰": 1335,
    "諂": 1336,
    "諄": 1337,
    "談": 1338,
    "請": 1339,
    "諫": 1340,
    "諸": 1341,
    "諺": 1342,
    "諾": 1343,
    "謀": 1344,
    "謂": 1345,
    "謨": 1346,
    "謳": 1347,
    "謹": 1348,
    "譏": 1349,
    "識": 1350,
    "警": 1351,
    "議": 1352,
    "譽": 1353,
    "變": 1354,
    "讎": 1355,
    "讒": 1356,
    "讓": 1357,
    "谷": 1358,
    "谿": 1359,
    "豈": 1360,
    "豚": 1361,
    "象": 1362,
    "豪": 1363,
    "豫": 1364,
    "豹": 1365,
    "豺": 1366,
    "貌": 1367,
    "貞": 1368,
    "負": 1369,
    "財": 1370,
    "貢": 1371,
    "貧": 1372,
    "貨": 1373,
    "貫": 1374,
    "責": 1375,
    "貳": 1376,
    "貴": 1377,
    "貸": 1378,
    "賁": 1379,
    "資": 1380,
    "賈": 1381,
    "賊": 1382,
    "賜": 1383,
    "賢": 1384,
    "賤": 1385,
    "賦": 1386,
    "質": 1387,
    "贍": 1388,
    "贐": 1389,
    "赤": 1390,
    "赧": 1391,
    "赫": 1392,
    "走": 1393,
    "赴": 1394,
    "起": 1395,
    "超": 1396,
    "越": 1397,
    "趙": 1398,
    "趨": 1399,
    "足": 1400,
    "跖": 1401,
    "距": 1402,
    "跡": 1403,
    "路": 1404,
    "踐": 1405,
    "踰": 1406,
    "踵": 1407,
    "蹄": 1408,
    "蹈": 1409,
    "蹙": 1410,
    "蹴": 1411,
    "蹶": 1412,
    "躍": 1413,
    "身": 1414,
    "車": 1415,
    "軍": 1416,
    "軻": 1417,
    "載": 1418,
    "輔": 1419,
    "輕": 1420,
    "輪": 1421,
    "輸": 1422,
    "輿": 1423,
    "轉": 1424,
    "辛": 1425,
    "辜": 1426,
    "辟": 1427,
    "辭": 1428,
    "辯": 1429,
    "辰": 1430,
    "辱": 1431,
    "農": 1432,
    "迎": 1433,
    "近": 1434,
    "迨": 1435,
    "迫": 1436,
    "述": 1437,
    "迹": 1438,
    "追": 1439,
    "退": 1440,
    "送": 1441,
    "逃": 1442,
    "逄": 1443,
    "逆": 1444,
    "通": 1445,
    "逝": 1446,
    "速": 1447,
    "造": 1448,
    "逢": 1449,
    "連": 1450,
    "進": 1451,
    "逸": 1452,
    "逼": 1453,
    "遁": 1454,
    "遂": 1455,
    "遇": 1456,
    "遊": 1457,
    "運": 1458,
    "遍": 1459,
    "過": 1460,
    "遏": 1461,
    "道": 1462,
    "達": 1463,
    "違": 1464,
    "遠": 1465,
    "適": 1466,
    "遭": 1467,
    "遲": 1468,
    "遵": 1469,
    "遷": 1470,
    "選": 1471,
    "遺": 1472,
    "避": 1473,
    "邇": 1474,
    "邑": 1475,
    "邠": 1476,
    "邦": 1477,
    "邪": 1478,
    "郊": 1479,
    "郢": 1480,
    "郭": 1481,
    "郵": 1482,
    "都": 1483,
    "鄉": 1484,
    "鄒": 1485,
    "鄙": 1486,
    "鄭": 1487,
    "鄰": 1488,
    "配": 1489,
    "酒": 1490,
    "醉": 1491,
    "醜": 1492,
    "醫": 1493,
    "釁": 1494,
    "采": 1495,
    "里": 1496,
    "重": 1497,
    "野": 1498,
    "量": 1499,
    "金": 1500,
    "釜": 1501,
    "鈞": 1502,
    "鍾": 1503,
    "鎡": 1504,
    "鎰": 1505,
    "鐘": 1506,
    "鐵": 1507,
    "鑒": 1508,
    "鑽": 1509,
    "鑿": 1510,
    "長": 1511,
    "門": 1512,
    "閉": 1513,
    "閑": 1514,
    "閒": 1515,
    "間": 1516,
    "閔": 1517,
    "關": 1518,
    "阨": 1519,
    "阱": 1520,
    "阻": 1521,
    "阿": 1522,
    "附": 1523,
    "陋": 1524,
    "降": 1525,
    "陰": 1526,
    "陳": 1527,
    "陵": 1528,
    "陶": 1529,
    "陷": 1530,
    "陸": 1531,
    "陽": 1532,
    "隅": 1533,
    "階": 1534,
    "隘": 1535,
    "隙": 1536,
    "險": 1537,
    "隱": 1538,
    "集": 1539,
    "雉": 1540,
    "雖": 1541,
    "雞": 1542,
    "離": 1543,
    "難": 1544,
    "雨": 1545,
    "雪": 1546,
    "雲": 1547,
    "霄": 1548,
    "霓": 1549,
    "霸": 1550,
    "靈": 1551,
    "非": 1552,
    "靡": 1553,
    "面": 1554,
    "革": 1555,
    "音": 1556,
    "順": 1557,
    "頌": 1558,
    "頑": 1559,
    "頒": 1560,
    "領": 1561,
    "頞": 1562,
    "頻": 1563,
    "顏": 1564,
    "願": 1565,
    "顙": 1566,
    "顛": 1567,
    "類": 1568,
    "顣": 1569,
    "顧": 1570,
    "顯": 1571,
    "風": 1572,
    "飛": 1573,
    "食": 1574,
    "飢": 1575,
    "飦": 1576,
    "飧": 1577,
    "飲": 1578,
    "飽": 1579,
    "餉": 1580,
    "養": 1581,
    "餒": 1582,
    "餓": 1583,
    "餔": 1584,
    "餘": 1585,
    "館": 1586,
    "餱": 1587,
    "餽": 1588,
    "饋": 1589,
    "饑": 1590,
    "饔": 1591,
    "饜": 1592,
    "首": 1593,
    "馬": 1594,
    "馮": 1595,
    "馳": 1596,
    "駕": 1597,
    "駟": 1598,
    "驅": 1599,
    "驕": 1600,
    "驩": 1601,
    "體": 1602,
    "高": 1603,
    "髡": 1604,
    "髮": 1605,
    "鬥": 1606,
    "鬨": 1607,
    "鬬": 1608,
    "鬱": 1609,
    "鬲": 1610,
    "鬻": 1611,
    "魚": 1612,
    "魯": 1613,
    "鯀": 1614,
    "鰥": 1615,
    "鳥": 1616,
    "鳳": 1617,
    "鳴": 1618,
    "鴃": 1619,
    "鴈": 1620,
    "鴻": 1621,
    "鵝": 1622,
    "鶃": 1623,
    "鶴": 1624,
    "鸇": 1625,
    "鹿": 1626,
    "麀": 1627,
    "麋": 1628,
    "麒": 1629,
    "麗": 1630,
    "麟": 1631,
    "麻": 1632,
    "黃": 1633,
    "黍": 1634,
    "黎": 1635,
    "黝": 1636,
    "黨": 1637,
    "鼃": 1638,
    "鼈": 1639,
    "鼎": 1640,
    "鼓": 1641,
    "鼻": 1642,
    "齊": 1643,
    "齒": 1644,
    "齕": 1645,
    "龍": 1646,
    "！": 1647,
    "，": 1648,
    "：": 1649,
    "；": 1650,
    "？": 1651,
    "曰：": 1652,
    "曰：「": 1653,
    "也。": 1654,
    "？」": 1655,
    "也，": 1656,
    "孟子": 1657,
    "者，": 1658,
    "之，": 1659,
    "曰：『": 1660,
    "。」": 1661,
    "天下": 1662,
    "，則": 1663,
    "，不": 1664,
    "孟子曰：「": 1665,
    "。』": 1666,
    "也。」": 1667,
    "也；": 1668,
    "矣。": 1669,
    "而不": 1670,
    "人之": 1671,
    "可以": 1672,
    "之。": 1673,
    "子之": 1674,
    "乎？」": 1675,
    "孔子": 1676,
    "哉？": 1677,
    "，以": 1678,
    "，是": 1679,
    "天下之": 1680,
    "父母": 1681,
    "君子": 1682,
    "不得": 1683,
    "王之": 1684,
    "不可": 1685,
    "也。』": 1686,
    "然後": 1687,
    "而後": 1688,
    "？』": 1689,
    "問曰：「": 1690,
    "諸侯": 1691,
    "以為": 1692,
    "王曰：「": 1693,
    "乎？": 1694,
    "《詩": 1695,
    "《詩》": 1696,
    "焉。": 1697,
    "矣，": 1698,
    "心，": 1699,
    "夫子": 1700,
    "不能": 1701,
    "，然後": 1702,
    "矣。」": 1703,
    "也？」": 1704,
    "之以": 1705,
    "人，": 1706,
    "對曰：「": 1707,
    "《詩》云": 1708,
    "其所": 1709,
    "，其": 1710,
    "曰『": 1711,
    "焉，": 1712,
    "為不": 1713,
    "：『": 1714,
    "之所": 1715,
    "與？」": 1716,
    "之道": 1717,
    "而已": 1718,
    "矣；": 1719,
    "足以": 1720,
    "，而": 1721,
    "昔者": 1722,
    "其君": 1723,
    "《詩》云：『": 1724,
    "，何": 1725,
    "，必": 1726,
    "天子": 1727,
    "不仁": 1728,
    "也？": 1729,
    "之。」": 1730,
    "曾子": 1731,
    "公之": 1732,
    "，有": 1733,
    "百姓": 1734,
    "之謂": 1735,
    "與？": 1736,
    "於其": 1737,
    "為之": 1738,
    "孟子對曰：「": 1739,
    "未有": 1740,
    "者也。": 1741,
    "文王": 1742,
    "，無": 1743,
    "寡人": 1744,
    "之不": 1745,
    "不足": 1746,
    "孔子曰：『": 1747,
    "》曰：『": 1748,
    "其民": 1749,
    "者。": 1750,
    "，吾": 1751,
    "不為": 1752,
    "。今": 1753,
    "於此": 1754,
    "謂之": 1755,
    "之於": 1756,
    "何以": 1757,
    "哉？」": 1758,
    "，非": 1759,
    "天下，": 1760,
    "周公": 1761,
    "堯舜": 1762,
    "大夫": 1763,
    "古之": 1764,
    "與之": 1765,
    "然則": 1766,
    "，如": 1767,
    "之；": 1768,
    "伊尹": 1769,
    "此之謂": 1770,
    "三年": 1771,
    "，故": 1772,
    "民之": 1773,
    "義，": 1774,
    "未之": 1775,
    "之也。": 1776,
    "之何": 1777,
    "人者": 1778,
    "有不": 1779,
    "於王": 1780,
    "』，": 1781,
    "否。": 1782,
    "子，": 1783,
    "人皆": 1784,
    "齊人": 1785,
    "政，": 1786,
    "之子": 1787,
    "，我": 1788,
    "萬章": 1789,
    "時，": 1790,
    "七十": 1791,
    "諸？」": 1792,
    "禽獸": 1793,
    "也，非": 1794,
    "之，則": 1795,
    "見孟子": 1796,
    "有道": 1797,
    "不以": 1798,
    "管仲": 1799,
    "，可以": 1800,
    "。孟子曰：「": 1801,
    "乘之": 1802,
    "，王": 1803,
    "。王": 1804,
    "，民": 1805,
    "！』": 1806,
    "，莫": 1807,
    "所以": 1808,
    "之，是": 1809,
    "他日": 1810,
    "子以": 1811,
    "也。如": 1812,
    "，自": 1813,
    "吾聞": 1814,
    "伯夷": 1815,
    "於人": 1816,
    "其道": 1817,
    "仁義": 1818,
    "而已矣。": 1819,
    "，雖": 1820,
    "然。": 1821,
    "五十": 1822,
    "者不": 1823,
    "天下之民": 1824,
    "如之何": 1825,
    "於齊": 1826,
    "妻子": 1827,
    "齊宣": 1828,
    "可得": 1829,
    "人有": 1830,
    "曰：『吾": 1831,
    "所欲": 1832,
    "若是": 1833,
    "與人": 1834,
    "，為": 1835,
    "者也；": 1836,
    "。』」": 1837,
    "於天下": 1838,
    "，君": 1839,
    "，小": 1840,
    "敢問": 1841,
    "之心，": 1842,
    "子曰：「": 1843,
    "丈夫": 1844,
    "，亦": 1845,
    "其親": 1846,
    "，曰：「": 1847,
    "賢者": 1848,
    "國之": 1849,
    "，何也？」": 1850,
    "，勿": 1851,
    "無罪": 1852,
    "而食": 1853,
    "父母，": 1854,
    "，可": 1855,
    "人者，": 1856,
    "將以": 1857,
    "君子之": 1858,
    "心。": 1859,
    "也。故": 1860,
    "曰：「否。": 1861,
    "必有": 1862,
    "，不能": 1863,
    "天之": 1864,
    "《書": 1865,
    "《書》曰：『": 1866,
    "今日": 1867,
    "不知": 1868,
    "如此": 1869,
    "矣。』": 1870,
    "聖人": 1871,
    "子。": 1872,
    "子思": 1873,
    "瞽瞍": 1874,
    "萬乘之": 1875,
    "與民": 1876,
    "國，": 1877,
    "百里": 1878,
    "民，": 1879,
    "而征": 1880,
    "仁者": 1881,
    "！」": 1882,
    "，未有": 1883,
    "是以": 1884,
    "不忍": 1885,
    "至於": 1886,
    "四海": 1887,
    "然，": 1888,
    "是故": 1889,
    "終身": 1890,
    "而之": 1891,
    "樂，": 1892,
    "而相": 1893,
    "父子": 1894,
    "。夫": 1895,
    "武王": 1896,
    "而無": 1897,
    "進，": 1898,
    "為政": 1899,
    "之中": 1900,
    "，不得": 1901,
    "公孫": 1902,
    "也，而": 1903,
    "，不可": 1904,
    "悅而": 1905,
    "，不可以": 1906,
    "有餘": 1907,
    "富貴": 1908,
    "萬章問曰：「": 1909,
    "不孝": 1910,
    "』？": 1911,
    "而民": 1912,
    "。以": 1913,
    "食，": 1914,
    "失其": 1915,
    "者，未之": 1916,
    "者，未之有": 1917,
    "異於": 1918,
    "無以": 1919,
    "人也。": 1920,
    "人。": 1921,
    "焉；": 1922,
    "之。』": 1923,
    "而求": 1924,
    "於我": 1925,
    "仁，": 1926,
    "無恆": 1927,
    "先王之": 1928,
    "曰：「不": 1929,
    "也？』": 1930,
    "也。今": 1931,
    "文王之": 1932,
    "曰，": 1933,
    "匹夫": 1934,
    "非其": 1935,
    "為我": 1936,
    "是也。": 1937,
    "王者": 1938,
    "何為不": 1939,
    "也，則": 1940,
    "左右": 1941,
    "所謂": 1942,
    "國家": 1943,
    "。不": 1944,
    "之者，": 1945,
    "行仁": 1946,
    "實，": 1947,
    "文公": 1948,
    "為善": 1949,
    "之曰：『": 1950,
    "無君": 1951,
    "公孫丑": 1952,
    "，曰：『": 1953,
    "然。」": 1954,
    "知其": 1955,
    "自反": 1956,
    "未嘗": 1957,
    "子貢": 1958,
    "聖人之": 1959,
    "此之謂也。」": 1960,
    "莫如": 1961,
    "哉？』": 1962,
    "之至": 1963,
    "使人": 1964,
    "以其": 1965,
    "言，": 1966,
    "，子": 1967,
    "公明": 1968,
    "三年之": 1969,
    "為大": 1970,
    "事親": 1971,
    "春秋": 1972,
    "有道：": 1973,
    "千里": 1974,
    "，豈": 1975,
    "寡人之": 1976,
    "民不": 1977,
    "，或": 1978,
    "何如": 1979,
    "不可勝": 1980,
    "百畝": 1981,
    "是何": 1982,
    "人而": 1983,
    "焉。」": 1984,
    "色，": 1985,
    "為民": 1986,
    "仲尼": 1987,
    "則可": 1988,
    "父兄": 1989,
    "兄弟": 1990,
    "對曰：『": 1991,
    "之矣。": 1992,
    "如是": 1993,
    "齊宣王": 1994,
    "之事": 1995,
    "可得聞": 1996,
    "而王": 1997,
    "之！": 1998,
    "見，": 1999,
    "長者": 2000,
    "於是": 2001,
    "中國": 2002,
    "，猶": 2003,
    "反其": 2004,
    "而有": 2005,
    "為能": 2006,
    "可為": 2007,
    "庶幾": 2008,
    "於此，": 2009,
    "他，": 2010,
    "，殺": 2011,
    "。《書》曰：『": 2012,
    "，惟": 2013,
    "。人": 2014,
    "不得已": 2015,
    "皆曰": 2016,
    "未聞": 2017,
    "，則必": 2018,
    "取之": 2019,
    "其子": 2020,
    "莫之": 2021,
    "，天": 2022,
    "子路": 2023,
    "，由": 2024,
    "之，故": 2025,
    "。孔子曰：『": 2026,
    "行，": 2027,
    "於民": 2028,
    "。湯": 2029,
    "不智": 2030,
    "仲子": 2031,
    "堯舜之道": 2032,
    "有為": 2033,
    "前日": 2034,
    "，一": 2035,
    "然友": 2036,
    "禮，": 2037,
    "許子": 2038,
    "乎？」曰：「": 2039,
    "以天下": 2040,
    "而天下": 2041,
    "，不以": 2042,
    "作，": 2043,
    "。舜": 2044,
    "之實，": 2045,
    "之相": 2046,
    "右師": 2047,
    "解憂": 2048,
    "為天子": 2049,
    "堯之子": 2050,
    "謳歌": 2051,
    "孟子見": 2052,
    "梁惠": 2053,
    "者也，": 2054,
    "雖有": 2055,
    "古之人": 2056,
    "。或": 2057,
    "肉，": 2058,
    "然而不": 2059,
    "人以": 2060,
    "為其": 2061,
    "，出": 2062,
    "無敵": 2063,
    "能禦": 2064,
    "之？": 2065,
    "齊宣王問曰：「": 2066,
    "後世": 2067,
    "無罪而": 2068,
    "曰：「有": 2069,
    "曰：「是": 2070,
    "之也。」": 2071,
    "牛羊": 2072,
    "也。夫": 2073,
    "何也？」": 2074,
    "而不足以": 2075,
    "之乎？」": 2076,
    "王之不": 2077,
    "。《詩》云：『": 2078,
    "於心": 2079,
    "可得聞與？」": 2080,
    "曰：「然則": 2081,
    "今王": 2082,
    "皆欲": 2083,
    "從而": 2084,
    "凶年": 2085,
    "亡。": 2086,
    "也。」曰：「": 2087,
    "，有諸？」": 2088,
    "今之": 2089,
    "聞王": 2090,
    "之內": 2091,
    "大事": 2092,
    "疾，": 2093,
    "。有": 2094,
    "景公": 2095,
    "問於": 2096,
    "也。無": 2097,
    "今也": 2098,
    "者有": 2099,
    "女，": 2100,
    "是時": 2101,
    "如之何？」": 2102,
    "國人皆": 2103,
    "聽；": 2104,
    "可殺": 2105,
    "伐燕": 2106,
    "而已矣。」": 2107,
    "大悅": 2108,
    "有司": 2109,
    "曾子曰：『": 2110,
    "滕文公": 2111,
    "大國": 2112,
    "人之所欲": 2113,
    "人也，": 2114,
    "斯二": 2115,
    "樂正": 2116,
    "聖之": 2117,
    "然而": 2118,
    "不受": 2119,
    "，又": 2120,
    "不如": 2121,
    "者，是": 2122,
    "正，": 2123,
    "，孔子": 2124,
    "。得": 2125,
    "有天下": 2126,
    "皆悅而": 2127,
    "皆悅而願": 2128,
    "，皆": 2129,
    "也，猶": 2130,
    "孟子曰：「伯夷": 2131,
    "亦不": 2132,
    "柳下": 2133,
    "柳下惠": 2134,
    "而去": 2135,
    "與言": 2136,
    "不敢": 2137,
    "，則吾": 2138,
    "子以告": 2139,
    "，使": 2140,
    "。子": 2141,
    "』。": 2142,
    "管叔": 2143,
    "使之": 2144,
    "室，": 2145,
    "去齊": 2146,
    "雖然，": 2147,
    "小人": 2148,
    "三年之喪": 2149,
    "反命": 2150,
    "百官": 2151
  },
  "merges": [
    [
      "曰",
      "："
    ],
    [
      "曰：",
      "「"
    ],
    [
      "也",
      "。"
    ],
    [
      "？",
      "」"
    ],
    [
      "也",
      "，"
    ],
    [
      "孟",
      "子"
    ],
    [
      "者",
      "，"
    ],
    [
      "之",
      "，"
    ],
    [
      "曰：",
      "『"
    ],
    [
      "。",
      "」"
    ],
    [
      "天",
      "下"
    ],
    [
      "，",
      "則"
    ],
    [
      "，",
      "不"
    ],
    [
      "孟子",
      "曰：「"
    ],
    [
      "。",
      "』"
    ],
    [
      "也。",
      "」"
    ],
    [
      "也",
      "；"
    ],
    [
      "矣",
      "。"
    ],
    [
      "而",
      "不"
    ],
    [
      "人",
      "之"
    ],
    [
      "可",
      "以"
    ],
    [
      "之",
      "。"
    ],
    [
      "子",
      "之"
    ],
    [
      "乎",
      "？」"
    ],
    [
      "孔",
      "子"
    ],
    [
      "哉",
      "？"
    ],
    [
      "，",
      "以"
    ],
    [
      "，",
      "是"
    ],
    [
      "天下",
      "之"
    ],
    [
      "父",
      "母"
    ],
    [
      "君",
      "子"
    ],
    [
      "不",
      "得"
    ],
    [
      "王",
      "之"
    ],
    [
      "不",
      "可"
    ],
    [
      "也。",
      "』"
    ],
    [
      "然",
      "後"
    ],
    [
      "而",
      "後"
    ],
    [
      "？",
      "』"
    ],
    [
      "問",
      "曰：「"
    ],
    [
      "諸",
      "侯"
    ],
    [
      "以",
      "為"
    ],
    [
      "王",
      "曰：「"
    ],
    [
      "乎",
      "？"
    ],
    [
      "《",
      "詩"
    ],
    [
      "《詩",
      "》"
    ],
    [
      "焉",
      "。"
    ],
    [
      "矣",
      "，"
    ],
    [
      "心",
      "，"
    ],
    [
      "夫",
      "子"
    ],
    [
      "不",
      "能"
    ],
    [
      "，",
      "然後"
    ],
    [
      "矣",
      "。」"
    ],
    [
      "也",
      "？」"
    ],
    [
      "之",
      "以"
    ],
    [
      "人",
      "，"
    ],
    [
      "對",
      "曰：「"
    ],
    [
      "《詩》",
      "云"
    ],
    [
      "其",
      "所"
    ],
    [
      "，",
      "其"
    ],
    [
      "曰",
      "『"
    ],
    [
      "焉",
      "，"
    ],
    [
      "為",
      "不"
    ],
    [
      "：",
      "『"
    ],
    [
      "之",
      "所"
    ],
    [
      "與",
      "？」"
    ],
    [
      "之",
      "道"
    ],
    [
      "而",
      "已"
    ],
    [
      "矣",
      "；"
    ],
    [
      "足",
      "以"
    ],
    [
      "，",
      "而"
    ],
    [
      "昔",
      "者"
    ],
    [
      "其",
      "君"
    ],
    [
      "《詩》云",
      "：『"
    ],
    [
      "，",
      "何"
    ],
    [
      "，",
      "必"
    ],
    [
      "天",
      "子"
    ],
    [
      "不",
      "仁"
    ],
    [
      "也",
      "？"
    ],
    [
      "之",
      "。」"
    ],
    [
      "曾",
      "子"
    ],
    [
      "公",
      "之"
    ],
    [
      "，",
      "有"
    ],
    [
      "百",
      "姓"
    ],
    [
      "之",
      "謂"
    ],
    [
      "與",
      "？"
    ],
    [
      "於",
      "其"
    ],
    [
      "為",
      "之"
    ],
    [
      "孟子",
      "對曰：「"
    ],
    [
      "未",
      "有"
    ],
    [
      "者",
      "也。"
    ],
    [
      "文",
      "王"
    ],
    [
      "，",
      "無"
    ],
    [
      "寡",
      "人"
    ],
    [
      "之",
      "不"
    ],
    [
      "不",
      "足"
    ],
    [
      "孔子",
      "曰：『"
    ],
    [
      "》",
      "曰：『"
    ],
    [
      "其",
      "民"
    ],
    [
      "者",
      "。"
    ],
    [
      "，",
      "吾"
    ],
    [
      "不",
      "為"
    ],
    [
      "。",
      "今"
    ],
    [
      "於",
      "此"
    ],
    [
      "謂",
      "之"
    ],
    [
      "之",
      "於"
    ],
    [
      "何",
      "以"
    ],
    [
      "哉",
      "？」"
    ],
    [
      "，",
      "非"
    ],
    [
      "天下",
      "，"
    ],
    [
      "周",
      "公"
    ],
    [
      "堯",
      "舜"
    ],
    [
      "大",
      "夫"
    ],
    [
      "古",
      "之"
    ],
    [
      "與",
      "之"
    ],
    [
      "然",
      "則"
    ],
    [
      "，",
      "如"
    ],
    [
      "之",
      "；"
    ],
    [
      "伊",
      "尹"
    ],
    [
      "此",
      "之謂"
    ],
    [
      "三",
      "年"
    ],
    [
      "，",
      "故"
    ],
    [
      "民",
      "之"
    ],
    [
      "義",
      "，"
    ],
    [
      "未",
      "之"
    ],
    [
      "之",
      "也。"
    ],
    [
      "之",
      "何"
    ],
    [
      "人",
      "者"
    ],
    [
      "有",
      "不"
    ],
    [
      "於",
      "王"
    ],
    [
      "』",
      "，"
    ],
    [
      "否",
      "。"
    ],
    [
      "子",
      "，"
    ],
    [
      "人",
      "皆"
    ],
    [
      "齊",
      "人"
    ],
    [
      "政",
      "，"
    ],
    [
      "之",
      "子"
    ],
    [
      "，",
      "我"
    ],
    [
      "萬",
      "章"
    ],
    [
      "時",
      "，"
    ],
    [
      "七",
      "十"
    ],
    [
      "諸",
      "？」"
    ],
    [
      "禽",
      "獸"
    ],
    [
      "也，",
      "非"
    ],
    [
      "之，",
      "則"
    ],
    [
      "見",
      "孟子"
    ],
    [
      "有",
      "道"
    ],
    [
      "不",
      "以"
    ],
    [
      "管",
      "仲"
    ],
    [
      "，",
      "可以"
    ],
    [
      "。",
      "孟子曰：「"
    ],
    [
      "乘",
      "之"
    ],
    [
      "，",
      "王"
    ],
    [
      "。",
      "王"
    ],
    [
      "，",
      "民"
    ],
    [
      "！",
      "』"
    ],
    [
      "，",
      "莫"
    ],
    [
      "所",
      "以"
    ],
    [
      "之，",
      "是"
    ],
    [
      "他",
      "日"
    ],
    [
      "子",
      "以"
    ],
    [
      "也。",
      "如"
    ],
    [
      "，",
      "自"
    ],
    [
      "吾",
      "聞"
    ],
    [
      "伯",
      "夷"
    ],
    [
      "於",
      "人"
    ],
    [
      "其",
      "道"
    ],
    [
      "仁",
      "義"
    ],
    [
      "而已",
      "矣。"
    ],
    [
      "，",
      "雖"
    ],
    [
      "然",
      "。"
    ],
    [
      "五",
      "十"
    ],
    [
      "者",
      "不"
    ],
    [
      "天下之",
      "民"
    ],
    [
      "如",
      "之何"
    ],
    [
      "於",
      "齊"
    ],
    [
      "妻",
      "子"
    ],
    [
      "齊",
      "宣"
    ],
    [
      "可",
      "得"
    ],
    [
      "人",
      "有"
    ],
    [
      "曰：『",
      "吾"
    ],
    [
      "所",
      "欲"
    ],
    [
      "若",
      "是"
    ],
    [
      "與",
      "人"
    ],
    [
      "，",
      "為"
    ],
    [
      "者",
      "也；"
    ],
    [
      "。』",
      "」"
    ],
    [
      "於",
      "天下"
    ],
    [
      "，",
      "君"
    ],
    [
      "，",
      "小"
    ],
    [
      "敢",
      "問"
    ],
    [
      "之",
      "心，"
    ],
    [
      "子",
      "曰：「"
    ],
    [
      "丈",
      "夫"
    ],
    [
      "，",
      "亦"
    ],
    [
      "其",
      "親"
    ],
    [
      "，",
      "曰：「"
    ],
    [
      "賢",
      "者"
    ],
    [
      "國",
      "之"
    ],
    [
      "，何",
      "也？」"
    ],
    [
      "，",
      "勿"
    ],
    [
      "無",
      "罪"
    ],
    [
      "而",
      "食"
    ],
    [
      "父母",
      "，"
    ],
    [
      "，",
      "可"
    ],
    [
      "人",
      "者，"
    ],
    [
      "將",
      "以"
    ],
    [
      "君",
      "子之"
    ],
    [
      "心",
      "。"
    ],
    [
      "也。",
      "故"
    ],
    [
      "曰：「",
      "否。"
    ],
    [
      "必",
      "有"
    ],
    [
      "，不",
      "能"
    ],
    [
      "天",
      "之"
    ],
    [
      "《",
      "書"
    ],
    [
      "《書",
      "》曰：『"
    ],
    [
      "今",
      "日"
    ],
    [
      "不",
      "知"
    ],
    [
      "如",
      "此"
    ],
    [
      "矣",
      "。』"
    ],
    [
      "聖",
      "人"
    ],
    [
      "子",
      "。"
    ],
    [
      "子",
      "思"
    ],
    [
      "瞽",
      "瞍"
    ],
    [
      "萬",
      "乘之"
    ],
    [
      "與",
      "民"
    ],
    [
      "國",
      "，"
    ],
    [
      "百",
      "里"
    ],
    [
      "民",
      "，"
    ],
    [
      "而",
      "征"
    ],
    [
      "仁",
      "者"
    ],
    [
      "！",
      "」"
    ],
    [
      "，",
      "未有"
    ],
    [
      "是",
      "以"
    ],
    [
      "不",
      "忍"
    ],
    [
      "至",
      "於"
    ],
    [
      "四",
      "海"
    ],
    [
      "然",
      "，"
    ],
    [
      "是",
      "故"
    ],
    [
      "終",
      "身"
    ],
    [
      "而",
      "之"
    ],
    [
      "樂",
      "，"
    ],
    [
      "而",
      "相"
    ],
    [
      "父",
      "子"
    ],
    [
      "。",
      "夫"
    ],
    [
      "武",
      "王"
    ],
    [
      "而",
      "無"
    ],
    [
      "進",
      "，"
    ],
    [
      "為",
      "政"
    ],
    [
      "之",
      "中"
    ],
    [
      "，不",
      "得"
    ],
    [
      "公",
      "孫"
    ],
    [
      "也，",
      "而"
    ],
    [
      "，不",
      "可"
    ],
    [
      "悅",
      "而"
    ],
    [
      "，不",
      "可以"
    ],
    [
      "有",
      "餘"
    ],
    [
      "富",
      "貴"
    ],
    [
      "萬章",
      "問曰：「"
    ],
    [
      "不",
      "孝"
    ],
    [
      "』",
      "？"
    ],
    [
      "而",
      "民"
    ],
    [
      "。",
      "以"
    ],
    [
      "食",
      "，"
    ],
    [
      "失",
      "其"
    ],
    [
      "者，",
      "未之"
    ],
    [
      "者，未之",
      "有"
    ],
    [
      "異",
      "於"
    ],
    [
      "無",
      "以"
    ],
    [
      "人",
      "也。"
    ],
    [
      "人",
      "。"
    ],
    [
      "焉",
      "；"
    ],
    [
      "之",
      "。』"
    ],
    [
      "而",
      "求"
    ],
    [
      "於",
      "我"
    ],
    [
      "仁",
      "，"
    ],
    [
      "無",
      "恆"
    ],
    [
      "先",
      "王之"
    ],
    [
      "曰：「",
      "不"
    ],
    [
      "也",
      "？』"
    ],
    [
      "也。",
      "今"
    ],
    [
      "文",
      "王之"
    ],
    [
      "曰",
      "，"
    ],
    [
      "匹",
      "夫"
    ],
    [
      "非",
      "其"
    ],
    [
      "為",
      "我"
    ],
    [
      "是",
      "也。"
    ],
    [
      "王",
      "者"
    ],
    [
      "何",
      "為不"
    ],
    [
      "也，",
      "則"
    ],
    [
      "左",
      "右"
    ],
    [
      "所",
      "謂"
    ],
    [
      "國",
      "家"
    ],
    [
      "。",
      "不"
    ],
    [
      "之",
      "者，"
    ],
    [
      "行",
      "仁"
    ],
    [
      "實",
      "，"
    ],
    [
      "文",
      "公"
    ],
    [
      "為",
      "善"
    ],
    [
      "之",
      "曰：『"
    ],
    [
      "無",
      "君"
    ],
    [
      "公孫",
      "丑"
    ],
    [
      "，",
      "曰：『"
    ],
    [
      "然",
      "。」"
    ],
    [
      "知",
      "其"
    ],
    [
      "自",
      "反"
    ],
    [
      "未",
      "嘗"
    ],
    [
      "子",
      "貢"
    ],
    [
      "聖",
      "人之"
    ],
    [
      "此之謂",
      "也。」"
    ],
    [
      "莫",
      "如"
    ],
    [
      "哉？",
      "』"
    ],
    [
      "之",
      "至"
    ],
    [
      "使",
      "人"
    ],
    [
      "以",
      "其"
    ],
    [
      "言",
      "，"
    ],
    [
      "，",
      "子"
    ],
    [
      "公",
      "明"
    ],
    [
      "三年",
      "之"
    ],
    [
      "為",
      "大"
    ],
    [
      "事",
      "親"
    ],
    [
      "春",
      "秋"
    ],
    [
      "有道",
      "："
    ],
    [
      "千",
      "里"
    ],
    [
      "，",
      "豈"
    ],
    [
      "寡",
      "人之"
    ],
    [
      "民",
      "不"
    ],
    [
      "，",
      "或"
    ],
    [
      "何",
      "如"
    ],
    [
      "不可",
      "勝"
    ],
    [
      "百",
      "畝"
    ],
    [
      "是",
      "何"
    ],
    [
      "人",
      "而"
    ],
    [
      "焉",
      "。」"
    ],
    [
      "色",
      "，"
    ],
    [
      "為",
      "民"
    ],
    [
      "仲",
      "尼"
    ],
    [
      "則",
      "可"
    ],
    [
      "父",
      "兄"
    ],
    [
      "兄",
      "弟"
    ],
    [
      "對",
      "曰：『"
    ],
    [
      "之",
      "矣。"
    ],
    [
      "如",
      "是"
    ],
    [
      "齊宣",
      "王"
    ],
    [
      "之",
      "事"
    ],
    [
      "可得",
      "聞"
    ],
    [
      "而",
      "王"
    ],
    [
      "之",
      "！"
    ],
    [
      "見",
      "，"
    ],
    [
      "長",
      "者"
    ],
    [
      "於",
      "是"
    ],
    [
      "中",
      "國"
    ],
    [
      "，",
      "猶"
    ],
    [
      "反",
      "其"
    ],
    [
      "而",
      "有"
    ],
    [
      "為",
      "能"
    ],
    [
      "可",
      "為"
    ],
    [
      "庶",
      "幾"
    ],
    [
      "於此",
      "，"
    ],
    [
      "他",
      "，"
    ],
    [
      "，",
      "殺"
    ],
    [
      "。",
      "《書》曰：『"
    ],
    [
      "，",
      "惟"
    ],
    [
      "。",
      "人"
    ],
    [
      "不得",
      "已"
    ],
    [
      "皆",
      "曰"
    ],
    [
      "未",
      "聞"
    ],
    [
      "，則",
      "必"
    ],
    [
      "取",
      "之"
    ],
    [
      "其",
      "子"
    ],
    [
      "莫",
      "之"
    ],
    [
      "，",
      "天"
    ],
    [
      "子",
      "路"
    ],
    [
      "，",
      "由"
    ],
    [
      "之，",
      "故"
    ],
    [
      "。",
      "孔子曰：『"
    ],
    [
      "行",
      "，"
    ],
    [
      "於",
      "民"
    ],
    [
      "。",
      "湯"
    ],
    [
      "不",
      "智"
    ],
    [
      "仲",
      "子"
    ],
    [
      "堯舜",
      "之道"
    ],
    [
      "有",
      "為"
    ],
    [
      "前",
      "日"
    ],
    [
      "，",
      "一"
    ],
    [
      "然",
      "友"
    ],
    [
      "禮",
      "，"
    ],
    [
      "許",
      "子"
    ],
    [
      "乎？」",
      "曰：「"
    ],
    [
      "以",
      "天下"
    ],
    [
      "而",
      "天下"
    ],
    [
      "，不",
      "以"
    ],
    [
      "作",
      "，"
    ],
    [
      "。",
      "舜"
    ],
    [
      "之",
      "實，"
    ],
    [
      "之",
      "相"
    ],
    [
      "右",
      "師"
    ],
    [
      "解",
      "憂"
    ],
    [
      "為",
      "天子"
    ],
    [
      "堯",
      "之子"
    ],
    [
      "謳",
      "歌"
    ],
    [
      "孟子",
      "見"
    ],
    [
      "梁",
      "惠"
    ],
    [
      "者",
      "也，"
    ],
    [
      "雖",
      "有"
    ],
    [
      "古之",
      "人"
    ],
    [
      "。",
      "或"
    ],
    [
      "肉",
      "，"
    ],
    [
      "然",
      "而不"
    ],
    [
      "人",
      "以"
    ],
    [
      "為",
      "其"
    ],
    [
      "，",
      "出"
    ],
    [
      "無",
      "敵"
    ],
    [
      "能",
      "禦"
    ],
    [
      "之",
      "？"
    ],
    [
      "齊宣王",
      "問曰：「"
    ],
    [
      "後",
      "世"
    ],
    [
      "無罪",
      "而"
    ],
    [
      "曰：「",
      "有"
    ],
    [
      "曰：「",
      "是"
    ],
    [
      "之",
      "也。」"
    ],
    [
      "牛",
      "羊"
    ],
    [
      "也。",
      "夫"
    ],
    [
      "何",
      "也？」"
    ],
    [
      "而不",
      "足以"
    ],
    [
      "之",
      "乎？」"
    ],
    [
      "王之",
      "不"
    ],
    [
      "。",
      "《詩》云：『"
    ],
    [
      "於",
      "心"
    ],
    [
      "可得聞",
      "與？」"
    ],
    [
      "曰：「",
      "然則"
    ],
    [
      "今",
      "王"
    ],
    [
      "皆",
      "欲"
    ],
    [
      "從",
      "而"
    ],
    [
      "凶",
      "年"
    ],
    [
      "亡",
      "。"
    ],
    [
      "也。」",
      "曰：「"
    ],
    [
      "，有",
      "諸？」"
    ],
    [
      "今",
      "之"
    ],
    [
      "聞",
      "王"
    ],
    [
      "之",
      "內"
    ],
    [
      "大",
      "事"
    ],
    [
      "疾",
      "，"
    ],
    [
      "。",
      "有"
    ],
    [
      "景",
      "公"
    ],
    [
      "問",
      "於"
    ],
    [
      "也。",
      "無"
    ],
    [
      "今",
      "也"
    ],
    [
      "者",
      "有"
    ],
    [
      "女",
      "，"
    ],
    [
      "是",
      "時"
    ],
    [
      "如之何",
      "？」"
    ],
    [
      "國",
      "人皆"
    ],
    [
      "聽",
      "；"
    ],
    [
      "可",
      "殺"
    ],
    [
      "伐",
      "燕"
    ],
    [
      "而已",
      "矣。」"
    ],
    [
      "大",
      "悅"
    ],
    [
      "有",
      "司"
    ],
    [
      "曾子",
      "曰：『"
    ],
    [
      "滕",
      "文公"
    ],
    [
      "大",
      "國"
    ],
    [
      "人之",
      "所欲"
    ],
    [
      "人",
      "也，"
    ],
    [
      "斯",
      "二"
    ],
    [
      "樂",
      "正"
    ],
    [
      "聖",
      "之"
    ],
    [
      "然",
      "而"
    ],
    [
      "不",
      "受"
    ],
    [
      "，",
      "又"
    ],
    [
      "不",
      "如"
    ],
    [
      "者，",
      "是"
    ],
    [
      "正",
      "，"
    ],
    [
      "，",
      "孔子"
    ],
    [
      "。",
      "得"
    ],
    [
      "有",
      "天下"
    ],
    [
      "皆",
      "悅而"
    ],
    [
      "皆悅而",
      "願"
    ],
    [
      "，",
      "皆"
    ],
    [
      "也，",
      "猶"
    ],
    [
      "孟子曰：「",
      "伯夷"
    ],
    [
      "亦",
      "不"
    ],
    [
      "柳",
      "下"
    ],
    [
      "柳下",
      "惠"
    ],
    [
      "而",
      "去"
    ],
    [
      "與",
      "言"
    ],
    [
      "不",
      "敢"
    ],
    [
      "，則",
      "吾"
    ],
    [
      "子以",
      "告"
    ],
    [
      "，",
      "使"
    ],
    [
      "。",
      "子"
    ],
    [
      "』",
      "。"
    ],
    [
      "管",
      "叔"
    ],
    [
      "使",
      "之"
    ],
    [
      "室",
      "，"
    ],
    [
      "去",
      "齊"
    ],
    [
      "雖",
      "然，"
    ],
    [
      "小",
      "人"
    ],
    [
      "三年之",
      "喪"
    ],
    [
      "反",
      "命"
    ],
    [
      "百",
      "官"
    ]
  ],
  "special_tokens": [
    "<pad>",
    "<bos>",
    "<eos>",
    "<unk>"
  ]
}